10111111011000100011010101001001
10111111011110000100110000010101
10111111101010001001110101110100
00111110010000100101101100111101
10111110101000110110111110011000
10111110000100000000101101100101
10111100110011110101101010011101
10111110110101000001011011100100
10111111011111100011101110001011
10111111010111011001010001100111
10111101000100010100000110010100
00111111000010101011100010101011
00111101100101110001101111011010
10111111110010010101110110000011
11000000000001110010100101010011
00111110000101010011010000010011
00111110001110010100111110111110
10111101011100111000000110100100
11000000001011011111100011001100
10111111010011011001000110101101
10111111001110110111111110011111
10111111011011010111001011001001
10111011100010010110111100010001
11000000011100001000110111010100
10111110100101111101101010101011
10111110101010000110001111000011
00111110010010001001000011101111
00111100110010111111001010101110
10111111111111001000110101110010
10111110000100001111111110011100
00111111000101110000001100011010
00111111001011100010000101011011
