00111111011001110100101011010001
10111110100101001011010101111101
10111111011001110110010000010100
10111110101000101101011110100100
10111110100111110011011010001000
10111110011101100011111110100000
00111110000011110010110000010010
10111101100111001100000001000011
10111101111010100110101100101101
10111111011000010110010000100111
10111110100000110100010111010111
10111111000111011100100010101010
00111110001001001111110001010011
10111110111101110110001011000010
10111111001011000001111001101101
10111111010000101010111001100001
10111100101110011111100000011011
10111111000001000000111110110110
10111111100110010110001100011111
10111111100101110100001000001110
10111110111110100010110001001100
10111111101000100101001100110000
10111110110101111100101011111100
10111111001011001001011100001001
10111110011011010111010000101110
10111111001011010101011000010101
10111110011010010111101011101100
00111111011000100100110111100011
10111111100001101111111111111100
10111111000101001010111010110001
10111110111011011111101011001010
00111100000100101100101100101000
10111111010000111000101111010100
10111111100001110000000001101000
10111100100000110110101110110001
00111110101111001010110011000110
00111111000011111000001001011011
00111110101111100100011000010100
10111110010000010000000001111000
10111111100110011010000110010011
10111110100010000101101011011100
10111110111110011101111000001110
10111101010101111000000110001011
10111110100001011000010010100111
00111101100101101111100111111111
10111101100111101001011101110010
00111110100111011101110011001101
10111110100000000110111001011000
00111110011101001101001101111001
00111110100100001011011110110111
00111100101110010001000111100011
10111110000100110011101100000110
10111111001011001110000011101100
10111111100100100011101111111100
00111111100001101011011111000001
10111110100100000101110011110001
00111111010101110111101001101001
00111111001011100101111011000100
00111101011010010000001001000110
10111110110001100101011111101000
10111110111011010000001110011010
00111101100010000101110001001101
10111110011100011010111011001100
10111111010111111110100010100100
10111110100011000011011011111011
10111111001100010000101111001010
10111101111001001010010010100000
00111111000111111111000101111110
10111110100010101001010111101101
10111101111100001111000010110101
10111101101101001110010001111100
00111110010100110100100000111101
10111111001111101010100100110100
10111111110010110110110001001100
10111101010001001110100111101101
10111111101100001110011101100001
00111111011011000111010110001011
00111110000111101011010100100001
10111111011110001100110000110010
10111111111011110001001110111100
10111110101001000011101101000010
10111110011000001101110010101111
00111100001100010111011001111110
10111111100001010101010110111101
00111111001110100010110011000110
00111110011010010010001001110011
10111111100110010010010111100000
00111110100110000101100000101100
00111111100100101101111001011010
10111111011101011110101111000010
10111111110001100001110010100010
10111111111111000000000100000110
10111111000101100000110000000100
00111111011100001101100001010010
10111111000000111101001001000011
10111111100000100001011111001011
10111111110000010010001011101011
00111110010000000100110011110001
10111111011111000011111001100111
10111110111010011100100010101110
10111111010001101000101010000011
00111111100101101111111100000011
00111101110001011111011100101111
10111111010010100010000110010001
10111111000011110000101110000010
10111110101010000010000000101000
10111011100011111111001111001000
10111111000000110010001100101001
10111111011011001100011100000110
00111111100100100100010000111001
00111111010011101100100101111111
10111111000001010100000111101011
10111101111001110011000000000011
00111111100010011010011100110110
10111110110010010101000101110100
00111111010001110100010011001111
10111111011101000001001010000000
10111111001110100101100110010101
10111111100001110001001010101101
10111110001001000001010010010000
10111110111011001100011001010110
10111111001000000111101000100101
10111111001110010100001100011111
10111110000110011101011100010010
00111110111100100111110101001010
00111110101011001011010011100100
10111110100010111001001111001001
10111111011001001010110001101100
10111111001111011101010000000000
00111111011001010000111111011011
00111111010010110010100011000011
10111111011011001110100111011010
00111101110100000100110100010101
10111111100000100001100110100001
10111100100101101001001011001010
10111111101100100100001001010111
00111110111000101101100000100111
00111111001100000001011110111011
00111011001010000010000001011111
10111111100101000111000001111101
10111111100111100101001000100000
10111110111110001010011001011001
10111110100011110001011110001001
10111111001111101011110010101100
00111111001111011110001010010011
10111111011101001000010011110010
10111110111010000110000001010111
10111111011101001000110011000001
10111111001011101000110111100110
00111111010101000000111101110011
10111110000011111101001101011001
10111110010101101010011011000001
10111110011000011011111000011111
10111111001110000110111101010110
00111110100101111100001001110110
10111111001001110010001001101100
10111110110011111100010100101001
10111110100010110101001101011101
10111111001111010001101101010111
10111111110000000001011001001000
10111111110101100100011010010011
10111110011110010111011011111100
10111110110101001100000000100000
10111111011110110010110010110110
10111101100111011110010011001110
00111111000000111110001010011101
00111110011011001011011111110000
10111101111011101100001110111101
10111111101000110110001100001111
10111110010100001011111100110101
00111101101000000011100001001111
00111111100110000110010110111111
10111111010110010010100100001100
10111111010011101001100001101100
10111110010100101111111111101100
00111111101000011101110110000011
10111111111000001110111100101101
00111111100100011110010110001100
10111111000101100010010000111111
00111110100011000011011001110011
10111111100100010000011110100010
10111110111101010100001111101001
00111110101011001110100110101001
10111110100100111100101101000011
10111111100010111010000010011010
10111110100111011001000010100101
10111110100001010010000001011101
00111111010111101101001000101101
00111101100110101110111100111010
10111101100010000101010001101000
10111110001110001000111001110111
00111111111011110000110111000100
10111111001011101101100000000110
10111111100000101000111011001101
10111111010010010110000101010101
10111111001010001011101001001100
10111110011010110011100010000011
10111111001000010100000001000100
10111100001011011100101100101010
00111111001000000101110101101101
00111110111110010011110011110001
00111110100110001000101110101000
00111100110110111000001110000010
00111111111000000100101111010100
10111111011110000011011001110011
10111111101110010000011010001001
10111111100111001100111000110100
00111111010010000000111000011110
10111111010110101110101111000011
10111111100000101111000010100101
10111111010100100010000100111101
11000000000001110111101101011001
10111111100100110001101010010001
10111111111100111100100010100101
00111110001010111100110110110000
10111111000010111101110111110000
10111111110000001011001001000001
10111101110111100001000000100111
10111111011100110001110011000100
10111110110010011110100100010100
10111111000101110101100000111011
10111111111100101100100011010001
10111111101100011101010010010111
10111111010100011110110000010011
10111110111110000110100011011000
00111110101100101100110101101011
00111101110100011110111110010010
00111111011101111001011101100000
00111111010100011011101000001000
00111110011001110100100110001001
00111110010011001100000110001110
11000000001001101111101010111010
10111111011000011100010100000111
10111110000111001000011011110010
00111110100011010111110111101101
10111111001010011001101011100001
10111110001111100101011011110011
00111110110101000010011000011100
10111101110100000111011110111011
00111100001110000110010101010100
10111111100001010101101000001111
10111111001000000011110111001110
10111110011110110001011100101000
10111111000010011011001011001000
10111111101000011101110101100011
00111110110111100011010011011111
10111111001111110101101011111100
10111111100011100111101101111001
10111110110110010100110100011111
10111111001110000001000011011000
00111111010101110010111100010101
10111110001110000110100110110110
00111111000001001100010011010010
00111111101010101100010001001000
00111111101110111010010111101100
00111110100001100001110100011111
10111111100101111101101001001001
10111111010011001111010010111111
10111111000001011011001101010001
10111111100101110101100111001001
10111111000110011011001011100111
00111110000001001001100001101010
00111101111000000111000111011100
10111101111101100100000100100010
10111111100110101000000011110100
10111111000100001001110110100000
00111100110110011100101000000111
00111110110000100111101001001000
10111111110110000101001101101111
00111110010110011101101111111011
10111111000001000111000001110100
00111110100100001111100110110111
10111110100101110011111101110100
10111111010111101000000011000011
00111111011110110100010000000100
10111111100000111111101101101011
10111111010100010000000110111011
10111111001100100101101001101110
10111111001001001101011011111101
00111111000001101001111011101101
10111110100000100011001001001010
10111111010011011000001001110001
10111111100110111111010101101001
10111110001001000111100000000010
10111110000001000010110101010001
10111111011110110111111111000111
10111111100001011001101010001110
10111110011000111111011010110110
10111111100110110101101010000111
00111111100000001001111110101111
10111111001110101101111101110101
10111111101001010110111000011010
10111101111101101010110001010100
10111111010110100100000010111010
10111100011010101011100110000110
11000000000100001001111010110000
10111111011000101101000111100101
00111111100101110010000000010010
10111101110000101001001001000100
10111101001101100111010001100100
10111111100110100000111010110101
10111111000010010010001001010100
00111110111000101100000000011000
00111110000010001111000001001101
10111110111100110111011001101100
00111111001000111110011110001000
10111111101001101011100111110000
00111110110101111110110101000001
10111111111010011010101110001001
00111111000000110100010000101001
10111110101100100001101010101110
10111110001111001111010100111111
10111110111010010111011111010000
10111101011001100111110000001001
00111101101001000010101010000100
10111111010011111000100111000111
00111111011111000100110100000010
10111111011010101111000101111011
10111110011011110100000101000111
00111101000000000000110111100111
