10111110010000010111100010100111
00111110111011011011100111011001
00111110111111011111101001110111
00111110110110100000001100000100
10111110100100111001000001101001
10111111011111010011000100011011
10111110000001110111011111001111
00111110011111000101011111001101
00111110010000001010100000010110
10111110100110101010011101001010
10111110010111111001000111010100
11000000000010110111100100010111
10111110111010001100010110010000
10111111001011000001101000111101
00111110000110111101111100001100
10111111001000011010000110111001
10111110110111000111000101001110
10111110000111110111000101100011
10111111010000111110001110010101
00111101110111100000011001110011
10111111110111100000111101001011
10111111100010110010111110011011
10111111000010011011111010110110
10111111011100011011100100101111
10111101001010101001101110001110
10111110000000100011011101011000
10111110100010000001011000101100
00111110001000011001010011110001
10111111100111110010110101100011
10111110110100000011000010001011
10111101110101011001000110010100
10111111011101101011101001000101
