10111110111111110100110101111101
10111111000000100100100000111111
10111111010001001010010101011011
10111101100100000100100001010001
10111101110110101101011101011100
10111111001101101111101101110010
10111110011011001011100101110110
10111110111010011101100011010101
00111110111001010000111010111001
10111110000010011001010101010001
10111110011000101111010011010000
10111111001011000001011000111011
10111110100001100001110100000111
10111111100000101010001101000101
10111110100110100110011111110010
10111110010010111000011100111101
00111110110000101111100000101101
10111110111000001010100110001111
10111111000010101100010011101000
10111110111111000011001101101011
10111110110110010110110010010001
00111111010011001011001101011010
10111111001110001110101100010110
10111111101101100010100110100110
00111110000001111010101000010101
10111110110101110011101010100010
10111110110101011001111100001100
00111110010111011001100010010001
10111111000011000100010101001010
10111110100001001110110010001011
00111110011010100000101111111000
10111110101000011000111100101111
00111101110110011110000000100110
10111111011001010000111101011100
10111111000110111011011011100111
10111110100000011101001010011000
10111110011100101101001100110001
10111100100110001010001110000100
10111110000010110000100100011001
00111110000000110011010100001100
10111110010111101000000001111100
00111111101010101010111010000101
00111110101101001101101100100010
00111101101000010110010110101011
10111110111011000001000010000111
10111111000000110111111100000011
00111111010110100010110110101111
10111111010110101111100011110110
10111110101110100010001110100110
10111110001001001101010000000011
10111111000110110100000101111111
00111110010111001100111000001001
00111101100111111100010010010000
10111111001011111011100110011000
00111011111101110110100001010100
10111111011001001111001010001001
00111101000010011001010011000110
00111111100110010000001010101101
10111110110000011101101001011101
10111110111010001000001100010010
10111110000100101010100101100110
00111110001110110011000100011001
10111111000000110000101000010100
10111110100011011100100001110101
10111110000101011111001010000100
10111100110011011111011001100111
00111110001101000010101010101110
10111111000100101111111000111101
00111111000101101001001110011101
10111111101010111111111000111100
10111110111110111000011101100111
10111111100011010011001001001110
10111111000001000010011110100110
10111101111001100111110101000100
00111101001010101000011001100100
00111101110100110100011001111111
00111111010101110101000010111101
10111111010110011110000011000010
10111111001000110101010100010000
10111110011011000010010010101111
10111110110010101000000110000101
10111101011001011111000110000010
00111111011010110101010011100001
00111110111000011101101000100111
10111111010010001010111010110110
10111101010111101111100111001110
10111111101000111000011010001001
10111110110110010010010100100010
00111101101000001111011001000010
10111111110001010010101110010110
10111110111010000010110001101100
10111111111000010101001110001001
00111101101111011001001011011100
10111011100010001110101010100000
00111111000010001010110001101110
10111110111100010110000000000010
00111111010010000011100010011100
10111111011110100111001010101000
10111110110001000000001101001000
10111110101001100111011110001110
10111111000110101110110010011010
10111110100110001010000010110010
10111110101111010011101111101110
00111100101100111000110011110100
10111100001001011110100101111110
10111111001101010010010010101000
00111101110100000010100001000010
10111110111011100110011100000110
10111111001011001011101100110000
10111110101010010100011111011100
10111111101000011000111100000100
10111111010001000111101001111110
10111111011001110110011000111010
00111101101000001000001101001100
00111111010001111110000101101010
10111111100000101000101001011000
00111111011101010001000110100110
10111111011000110010001101111000
00111111011011010111101110111010
10111111000111100111101000011100
10111110010111000110111110101101
10111110111111101101111110010011
10111110101100110010000001101101
10111111011010011000001100111101
00111111000101111011000100101001
10111110100110110110101101010100
10111110111001110111000101111000
00111111100001011101000101100000
10111111010001111011100001110100
00111111010011101101100110001011
10111111110001111101001100011011
00111111000110111001110001010011
10111111010011101110000111001110
00111111001001010011111111011101
10111111001010110111000010010010
10111111011110000000110111000010
10111111110001010110000011110001
10111110000001110101010010110110
00111111010001100101110000111100
10111111100110101000010101000011
00111101110100011000001110010110
00111110111011100000000011011001
00111110111011100101000010111110
00111110000010111101111111010001
10111110010100110011110001000000
10111111010010100000111101000011
11000000000000001001100111000111
10111111100010111001111111000101
00111100101000000001001010011001
10111111010110010000100100001111
10111110110001011110001011111010
00111110101101111010110011000010
00111110101010100000101000010000
00111111001001110000001011001000
10111110010101110110100010000101
10111111100100101110100100011110
10111110010001100110011101100011
10111111010110000111011101011100
10111111010000101101111001111000
10111111100010110110100100110100
00111111100111101011001111110001
10111111001010011111001000000110
10111110101000000101001010010011
10111110010000100110100001101110
10111111000011010100011010011100
10111101001110000001111111111001
00111111110011111111000010001011
00111111100110001110101100110010
00111111011100001010101010100101
10111110001100001011101001101000
10111111000111110100111111110101
00111011001001011110100100100010
10111111010101011101100010011011
10111110111110100101101101001111
10111110001101111100110111001100
10111110000010100001011001010111
10111110101000001101000000101101
10111110000001101000110000001101
10111111010010010000001011001001
10111111001100110001010010111111
10111101111001110100010100011001
10111111111000111011001001101010
00111111010110101011001000011000
10111111000110000000111101110101
10111110001011111000000000000110
10111110001011110111010111001001
10111111100010001101110011011110
00111111100010000000000100111010
10111111001001110100010000010111
00111101100111100011100110001001
00111110001110110111110000001101
00111111001001100101001001111001
10111111100100011111110010010100
10111110101011100110111101001111
10111111100110000010111110100000
00111100110111000100000011111110
10111100110110111011001011101111
10111110111011110110101100111000
00111111001010100100100101111110
00111110110010100101000010111100
10111101110100101101010001101011
00111101000101011101001100111100
10111111000010010011011110111101
10111111000010101001000011011101
10111110010000101011110111010100
00111100100001010110011111001010
10111110111011011000000110100110
00111111100101000011100011001110
10111111011010111110000100100111
10111110011110000001011011110000
10111111101100101101110110011001
10111111010111010000010011100100
10111111000111110101010101110000
10111111010111101000001101110001
10111111110010010000100000100111
10111111000010001011110000000111
00111101011100000110000111001001
10111101011101001010100111100001
10111110111001111011101011001001
00111110111111001000011000100100
10111111100001101101010101100001
00111111011010111000110111001011
10111101100010011101101000111011
10111111001111101111111011101000
10111111000011011001110001111001
10111110000011011111001010001001
00111111100001000101010110010101
00111111001000111111110100011100
00111101010001000011011101011101
10111111010011011110001101000000
10111110101010111111111011000010
00111110000010011001010111100101
10111110011010100011010100101111
10111111000110010110000001101100
00111110101111001000011001010011
10111110110111110100110001111001
10111111100011101011111111110110
00111110011111110000100011001110
00111101101001110000110111011000
10111111011101010000110000100000
00111110101000110111001111110010
00111111010100011110101010101101
00111111011000011110000100011111
00111110101001101100001010110001
10111101011010010110011010110100
10111110111000011011100010010100
10111111100111001011101100111000
00111110010101111111111100110101
10111110011010111011000001101110
10111110011101111100011110111000
00111111001010111100011001011011
00111101101000101110101101101010
10111101111101001101110101010000
10111111011010010100010010111100
10111111001100101100000011011000
00111101110110110110011101110100
10111111000011110101010010001000
10111111100110110011000000100100
10111111000111000101111000001111
10111110001101110101100011101111
10111111100100011100111011001100
00111110101100110100011000110010
00111110100101111100001111000001
00111110101000011011010000011110
10111101101011011000010001111111
10111110101000011110111111001110
10111111000111001110000111110010
00111111000011000100100000011110
10111111001011100011101101000000
10111111010001100111010000100000
10111111100110100001110111111010
10111111100000101111011011000100
10111111101000011100001111110000
10111110100000010010001001011010
10111111000011000110111001011100
10111111010000100101110100100100
00111110001001100111010111111011
10111111100111000000100101010111
10111111000011100110011110001101
10111111000010100011000101111000
10111110100010000111110110100001
10111111010110100111001111000101
10111111001010111001110100111000
10111110000111001110111110111011
10111110010001011111111111101011
10111110100110101111001110000011
10111111010000101011110101001111
00111101110010100111101001000000
00111111010111110111100111111001
10111111011100100110101101011110
10111111010010101000111101100101
10111111000001100100101000111110
10111111100011000011110100010011
00111110100111101000000011100010
00111110010010110010011111100110
00111110010001100110010101010110
10111110101111100110001110000000
10111111000101001011100101000111
10111111000110100110111010110000
10111111101001010111101001111111
10111111001100011111111111111101
00111111010100111111010100011011
10111101101000111101101001110100
10111111100011000110101111010100
10111111001001010001011101111110
00111111000010001011100011111100
10111111110001010100010101111011
10111111011100111100110000100100
10111001100110101110010011001011
10111111011100101001100000110111
00111101111011000111000001111000
00111111100010011011011010100010
10111110011011001101100111100010
00111110101001001001111110010011
10111110010011011001001000100000
10111111000100000010111111110100
10111111001001011111011010000011
11000000000000101111110000100000
00111101010110110110000100111111
00111111001101100110110111101101
